memory_initialization_radix=2;
memory_initialization_vector=
1010100010000000,
1011101001011111,
0011100101001101,
0011110111111001,
1011110111110010,
0011010000000100,
0010111001111111,
1011101101101100,
0011100101000011,
1010100000111111,
1010111010000010,
0011000010100001,
0011110100110101,
1011110100101011,
1011001100111011,
0011011001101111,
1011011110111000,
0011010100110010,
1011101101010001,
0011110101011110,
1010111100010110,
1011011011011100,
0011011100010000,
1011100000010000,
1011101010101110,
0011110001010111,
1011000010001110,
0011100010100101,
1010100011001111,
1011100101011101,
1011001011011100,
1011101100100000,
1011101110111001,
0011010101101100,
1011100111101111,
1011100011111010,
1011011101100100,
1011011101100100,
1011000110111101,
0011101101100110,
0011110111110100,
0011111011111010,
1011010001100011,
0001110011110001,
0011100010111000,
1011100001111110,
1011010001100000,
1011100011011100,
0010111011101101,
0011110010010100,
0011101100001111,
1011100001101001,
1010111011001101,
1011001010110110,
0011010011101110,
0010101001011010,
0011101010100000,
1011000100101000,
0011000010010001,
0011101011111110,
1011011011000010,
0010010100100001,
0011100100101010,
0011100100011010,
1010101110110110,
1011010010110111,
1011100001101011,
1011101111100101,
1011101100001101,
1011011011110110,
0011000111010101,
1010010001100010,
0011100100111101,
0011000111010110,
1011011000100111,
1010111111001010,
1011000010110010,
1011101100100010,
1010011100100100,
0011010110000000,
0011000001100010,
0011001101100011,
0011000000001111,
1011011011011000,
1011001111000010,
0011001101101000,
1010111011011101,
0011010101101010,
0011000000110100,
1010010110110000,
1011010111001110,
0011000111011000,
1010010000100110,
1011101111100001,
0011000110101111,
0011110000111011,
1011100110001100,
1010110111010111,
0011010011111100,
0011010100110011,
0010110111111010,
1011010100110001,
1011010000000100,
1011001000001010,
0011010100100111,
1010111010001001,
0010001110010010,
0011001001010000,
0011011000000000,
1011100111101000,
0011011111101001,
1011011011010010,
0011000011010111,
1010111100110101,
0011010011010111,
1011100010001101,
0011100001101000,
1011010110011111,
0011010000101001,
1011010000110101,
1011010110100110,
0100000010111010,
1011110100111110,
1011100101111101,
0011101111010110,
1011100101100010,
0010111101011101,
1011000111110101,
0011010111000001,
1011011101000001,
0011101001110101,
1011101011101111,
1010011110101011,
0011011100011101,
1011001010001110,
0011101011001110,
0011000101110110,
1011101111101010,
0011110010111000,
0011001001110000,
1011011101111000,
0011001100111000,
1011000101000010,
0011001110010100,
0011001101001100,
1011001001010011,
1011100001111011,
0010101011001100,
0010111000000110,
1011011001001110,
1011100001101111,
1011000011001001,
0011010101010010,
0010001101010001,
0010111010001010,
0011001101111101,
1011011111010101,
1011001101001001,
0011010010000001,
1011100111011101,
0010110000000101,
0011100110001011,
0011100001000010,
0011001010110111,
1011010111110100,
1011010001110001,
1010110101010110,
0010011101110100,
1011001000100000,
0011011110110001,
0010110100110111,
1011011010001100,
1011110010011001,
1011111000011101,
1011001101110111,
1011100101000111,
1011011001000100,
0011100111010010,
0011110111111110,
0011110110000111,
0011011110111111,
0011010100101000,
0010111100100000,
0011001111100111,
1010111100001011,
0011010000001001,
1011101010001101,
1011100000101111,
0011011100010111,
1011111001110001,
0011100001001010,
0011110000110101,
1011101011010011,
1010110110001111,
0011100101100011,
1010111110011111,
1010110111011111,
1011010011111000,
1011110001100000,
0001011010000101,
0011010110011010,
0011100110000000,
0010001111110100,
0011001000011010,
0011111010000111,
1011010110110001,
1011101011110100,
1011100100000000,
0010110110111101,
0011001010101101,
0011101010001110,
0011010010010110,
1011001001011010,
0011110011000100,
1011011100001111,
1011110010010000,
0011100001010110,
0011001101101000,
1010100010110100,
0011011000110000,
0011000100110110,
0011011000110001,
1010110110011001,
0011000110101100,
0011010000010000,
0011010011111001,
0010000011001101,
0010010101110100,
0010100100001111,
1011001101011001,
0011010000101001,
1011100101110101,
1011100000100000,
1011000100101000,
0011011001101100,
0010111111111001,
1001010100011110,
0011010000000100,
1011000001001100,
0001111111001000,
1011011110010001,
1010111000010110,
1010111110001101,
1011011110011100,
1011001000011001,
0011010101000000,
1011001110101001,
1010110000101110,
1011010101010100,
0011100011010100,
0011011011000011,
1011101111100100,
1011011101001001,
0010100111110110,
0011101111011110,
1010110110101101,
0011000100101101,
0011101000000000,
0010110101101111,
0011010011111000,
1011011001000001,
1011011010110000,
1011011100111010,
0011101011000101,
1011000111111110,
1010010000011111,
0011011100010111,
0011010001100111,
0010000110010111,
1011100110010001,
1011100010111010,
1010101001110111,
0011010100001000,
1011110100110000,
1011010101111001,
1011001000101010,
1010010001000111,
0011101001000011,
0011011111100111,
1011010100000000,
0010110001110100,
0010110100010111,
0010101101010100,
0011011111110110,
0011100100010010,
1011101100011011,
1011100010110000,
1011011110110001,
0011101110110001,
1011010010011111,
1011011010011001,
0011111100011100,
0011011111010111,
0011010011011001,
0011011000110001,
1011100100000110,
1011100111011000,
0011001110110100,
1011101001110101,
0010000001110001,
1011000011100101,
1011010000001101,
1011010100010111,
0011001101101101,
0010001110110001,
1011100000100010,
0010110011100101,
1011100000101011,
0011000110011011,
0011000100001011,
0001111111010011,
1010110101110011,
0011000010001000,
0011011111011010,
1011010111011110,
0010011000001110,
1011000000010011,
0011100011101110,
1011011011011011,
0011010110011100,
0010110000100110,
1011010110100100,
0011010111010100,
1011001010101011,
0011101101001110,
0010110100010000,
1011100001000011,
0011101011011010,
0011110001001001,
0011001110011100,
0011000011011010,
0011100011110010,
1011011100110010,
0010010001010101,
1011011110001011,
1011000100011000,
1011110000000111,
1011010111100000,
1010101001111011,
1011101011110000,
0010001100101001,
1010100001010011,
0011100001101000,
1011010011000010,
0011100010110000,
1011101100010000,
1011100110110110,
0010100110100110,
0010111111101110,
0011010000110000,
0011010010000011,
0011101100001010,
1010111110010001,
1011100100111111,
0011110101011010,
1010100101110111,
1011010110010100,
0011111100110000,
1011011010010001,
1011110111110010,
1011101011001010,
0011011101001001,
0011110001001100,
1011111011010110,
1011100011010001,
0011000101101100,
0011011110100010,
0001111000100100,
1011010100101001,
1011110000001000,
0011010011110101,
0011100101010110,
1011110101110000,
0010111000000100,
0011101110111111,
0011011011001101,
0011010100001101,
0010100011001000,
1011100010001001,
0011010010001110,
1011011001011111,
0011001001000110,
0011011010101010,
0010100001001100,
0011011001011010,
1011100110010110,
0011011010100000,
0011101010010100,
0011111100110110,
0011101100101101,
0011100000110001,
0011011000001111,
0011000011001001,
1011110001010010,
1100000000100100,
1011110110010011,
1011101010111001,
1010111000101101,
1010100000100001,
1011010100010101,
1011000000101100,
0011001100011001,
0011101011011010,
0011000100011000,
0010111001101010,
1011101001011111,
0011011110010110,
0011100000011001,
1010101100100100,
0011101000000011,
0011101101111001,
1011100001010111,
0011001000001100,
1010110010010001,
1011100101110110,
0011001000110111,
0011010001000100,
0011100111001100,
0011010100010010,
0011100010011010,
0011100011101001,
0010010001010001,
1011010111001011,
1011011000010110,
1011010110100111,
1011010010010010,
0011011000101011,
1011110001011110,
1011101101001100,
0011101001111001,
1011100010000111,
1011100100010001;